100011000001101100011011101011000000110001011100100001000011010001010001010001100111110100111111000111000000111001000010
011000001001011010011110000000111011011100111011101101010100011001111011011010010000010110110111100100110110010000100110
000011011101111011011001111111000001011100100001100001111010001010000000101111101110101000000000011000100000011111001010
100110110100011001100101100100100010100100111001110110110111001110101010001001101111010010010001000110000000000010001010
110110110010001001101001101011010100111001011000000101101101000101101001010010011001100100111110111110001010011110010001
000011001101100100100000010001100000011001101011000010101100000101101111011001100011111100110011100111000100100011011001
110110011000110101001111010011011101000010011001110000110010110100011000100100000100010100100011000101101010000101111010
110000001101101110010010111010101001001101100000101000110011010010001001110010100111110011111011010111101111100111000011
010000010011010111100001011100111111010010100010101110110111011011011011010100100110100011001100001011010111000101111100
011110010001001000111000000100111100100000110101010110011001000011111010101100000111111100111100101001101110011000100001
001010101110111110000101001111000011111111110101000000111010101000000001111100111011010011100101001100110000100101110110
010100111110100011111011011001100011101100110011110111010000101111111010110110010010000010101101111010101111110010101000
101000100111010000100110110101111010001001100011001101011000000011011000100100010100100101101110000111011001010001000111
001011011000011001111010000011111101110101001101010110100001101100001110001100100001011011011111011001100000010001001101
010010001000101000001000001001110000011010111111110101101101101011100011011001000100000001110101001111110110111110111101
110101011001010001010110100001110000000111111111011100001001111010101100010111101010010001111010010100010001110001100001
100011010001111011011001001001101101101111000011110110110001011001110000001101011000101011011010110010010101101111110110
001111010100001011111001111101000101100011110100001010110110000001101100010011001101111000000111010111111110000000001001
111000101000101100110110000111010110110100101101011110111011000101011010110101001110111010101111001111010111010100101001
100111111001010000101100101111101010101101100101001101100010001111001001001001001001001111110000110000110111111111100001
011100011011101111111001100010101010111000000101100111001100101001001000100111001110010110101110010100010101000001101100
101010000100000011101111001000001110010101101001111110110110011111011101101101111000101010100010001011101111111100000111
011001001101011101010001001011010100000010000101000011011110101101001111100111001000110000001000110001110100011111101011
001100000010011010001110001110100011011010101110010100101011110010001000000000100000101000101000111101011001011101110111
110010001100010001001100011010010110010010011100110111101101110110011010110100011110011111100010101010010100110000111011
011110001000011011011110000000101010110101100101001111001100000001101010001110111010100001100101110100011011001000010101
101110110011110001110001011000010101010110101100110010000110011000111101101111000000100000010111101101011100101110110000
111110100011000111110000001001111001100101111000011100110111101000110101101000010110101001010110001100110110100100011011
100000001001100000000100110100111100010010110100110010101101111001011110010000101101011010101000001011001010001110101110
011110101011010000111011100010110101001010010011011101000100010111010100001011000011000110011110100101001001111010000010
100001001001101001111110110010011000010010111110100100000100100111011111101001010000001001110011100010010100101010010101
101000101000010111000001000100110000100011101011000101110111110010101111011000101000111010100101011111010000100101110101
101001011000011100100001111001001110011111010010111100111010011000100111111111000110010000011100011100000001001101010110
011010101001111010010000001101010111111010010111100101000111100010110010010011011010111111001111011110110101100100110000
010110100000010111010101110111001011100011100001001010010101000010001110010101111000010000011101101101100000010101101010
010100011101001010010001111001111100101110001010000111011000110111001110110010011101000111110010010011000100110110001110
000000011011000111010001100001110110010110001000111100011111010111011100001011101101011110110011101100001100110000011110
101010000111111001111001110101010101101010110011100001000011000000010111001010011000101011000001001110011011011011111101
100101110110100000111101110101110110111010111000111001101010001010101010000010001101100111010000010100000100101010010101
111111100110001011011111000000110110001110011101011000100010011000101101101111101000010111100111001001011011011111101110
110101011010110011011101101100001110110101011101010000010001011011111110010011000010100000101111110000000010110111100100
010000010110111011010001100111101111011101101100011110100100011001111110101111111001001100101011101010101011111100001111
011011011100000101001000100110101110010100101001001010101101001101011100010110101010011000110100101100101100010111011000
000010111001100001000011011100010011001011010110000011111001010011000101111101000000000001111000110100110011010000100011
100100001100000010010101110100110100101010010010001110011011011110010100110110110000000101101110100111110011011000000001
110100011011110111001111111010011101100101101111101101000100000000110101101001010101001100100000001110101101001001110111
001100110011010011011000000111001000101110100100011001100011000011011011010111011101000010000000100111100000011111111101
110111101011011111011100111011000001101100101111010010111110100000100010010110000010001011011100101110110100010001111001
100010001000101110101111101110111000001011010101101001010000100111011101101000000111110111001010100100100010000010011110
011100101110000011100000111011111000000000011111110001111110111000011111011100001011110000001110011000111010011101110001
001100000001111011000100000100000010010010000000001011111000100011100001101111000101000001001110000101101010111000011101
111011001001010010101101011010001010011101010001101011110110011010011110100000010001101000110001001001000000001101111011
100111011100000010011111010011111001000100110110010101001111011101110011101010101110110011110011101000101110011111000111
011011000101111111000000010011000100010010010111111011011010010110101001110010101001001000111111100111110001001101010011
111011110101111111110000111110000000100011010110101110011100101011011010011110011011000000111011011011000101110010011100
101001100100110111010100100010000110101101111001111111110101111100010110001110001110110000110110100001001100001001110001
001110001111001001101000111010011000001011011111110110111011100000000111011000001001010110111110000101101101100101111000
000110001001010000011111100010100001100101011101111100001000001011100101100111100000011010001111010101010010110101101000
010001011001111011001101001111011111000111100101111111011110010110101001000100010010101111000110111101110001111101101110
110100001011011010101000011101001000011110101011111011001011111011100000001000000110100101100101010011100111101101001011
000010100101000011000010010111101111000010000010001111011001001000110001111110000010011100000011101000001110001111101111
011110011000100011100100111001010110010110101110000100111011011010001010110001010101001101110011101001100100010000101011
000010000111011000100011011011100011001110010011101101110011111011000010010101000100010000111011010101101001011110000111
000101110101011110100110011110111111000101001011101001000000111101001001001011001101111101010000110001000111110100100111
110011110010000010010100001101011100000001100101110101011101010011000000101110000000010100110000110000101000110100000010
110000011001110000000001011011011100010010100111000001001110011111011110100111001110100011110001100110100101100111101110
111111111110101001100111101010010110110101100000111110000010110110000100110011111111000000001101101110110000110010000011
110010000100001001011011110000001111000100100110010000001111000001100011110010100011101010000011100100110101100101111010
000110110000100010010101111100100001101010100011001110101110000001101111010001110011110100010011101011100011100101111011
110010011001010100000110110000100011001010111110110110110001100000010111111001101010101110011110010101110101001011100011
000101010111101001001100001010101101010100101000011111101111001001000011110001011100111101101100001010111011001010010100
100110111010101010111001010100000110100110101111010010001011010000101011011111110010011110110100101110001001000110001100
010100100010001111010101101111000001001000111000010111101100001111001011111001101000111010001111000010111111111011001010
111111100010111101110101110010111000010010010111010011011100000110100001011101000010001111110010010010101010110000001000
110110011010011100100011110001110111101100111000001010110011100101000100010110111101101011100111010100100110110010010000
001001010010001010101001011100111101011010100010010111110011110111101001011100100111000101000100001101100100111110011110
001110100000110101110101111110010000001001000001011101110010011101000100101111010011001110001011010010110011001001101001
000101110101010101110001001000001010000011110010000010101101111010000110110001001000000110011100000101111111001111000001
111110010101010111011000001111011111000000101010101011010110001101110111000110110010011111011010010001000001111001101010
111010010011011000110001001111100010100010010010111111000011010011010011111011001100100101010101101000010000111110111110
101100101110011111111110101001001011000001101010110000000010111101001011010100100011111001001010111000111100101110011000
010001100010100111100101001001101010101011101010001001000110110100011001010111011001000101010011101001110011011100010110
011000000101000111010110011111110101010010011010101011010010100000011011100101011011111110011100111000000011101010101011
001010101111000100101111000111000010100011000101100010111100011000101111001011101011100001000111111100100011110000101101
111100101000101111010100110101011010101101110101110111000000100111010101100000010001011110100001110111101010110101100011
100000001110101111001100001100011000101111010110000010111010001101001010011001010111001111101011011111010011111010001011
010011110010011100101001110110111010001110100011001011101101110100001101101000100111111110010010111011001010111000110111
010100011101011000111101110000101110100010100001111001011010101100001111110111000110011111101011010010001001000111100010
000110011000110100001101010101111110000010100011101100111111111111001101011100000111111101101010111101010010010111100000
100100011101101011011000010100110010000000100100001101000111111110111111011101100100000001010110011000110001110010001000
110011000000110110011100010010011110100001101000010000010010100110001000010010011100001110111110011011001101010011100001
010001111100101001001110011000100100011001011111101010110010010011011110010111100011010101011011000111001101111000101010
101011111010011110001111000100010111011010111100000110100010110010101100100000010101011100100010100001010111100111010001
100001110001001101010010111001011101101110101010011111000110011001101110011011010011000001010001100100010011110001010001
000101001010000101101110111000101011010101100000011000101110100111101111001000010110011111001001011000001010010100100110
101110010111111111110100110010011111000001000011101011010111110011100001000100011011100001100111110101111111000000100001
101000000011100110000011110100111100101110110001011010111110011011101100100001011111100011000000000110001100101011000110
111111110101111011001011001101111111100100010101011100110011001001111011010010011111001101000000110011000101001011000000
111001000111010101011111111111011011100100011000101100101011110111100111000101110010101010111110101100110011101100010100
100101111100000001010110000010011010111111111010000101000100100011001101001000110100000001101001101100111000001110101100
101001110011110111000101010000101111010100010000000101011000111000001111111011111011011010000001011011100110101010011011
110110100000011001110001100100001101100010101001111011101110111111111010101101111110110011101011100110001101101111100101
100101011011101110110101011111010011000101011010010011010100011111100100111101101000101000000011111010001011011101111001
011001111101100100110011001111001000111001011111111110100110100011110110101111100101100011001000001111000001001100000011
101111111111110001110010010111111010010100001001001101000111100000011100101100000111101001010101101101100011011111010101
100100100110111101001101111111010010000101010101000101000011010101011100010110100110011111010001001011010010100101101111
101101101111111000110100110101010010001100011100100110001111010001101101000100100111110110100100101101011010100001010111
011111110000011110000110100010101110100000000000111111001000101010000111101101001000111111010101000010000010000111111100
101100110101110110111111111010100111001011011111000000101010000000010110010000101101111010000111101110101001010111111110
000011111101011000010100000010100000101111001111011010110100111010111101010010111011100100011101101100101010111101001101
011110011001011100110000101110000001110011100110111011000001101110001010110110101100110001010100010101100101001100111010
010111110110010001010011101010111010010101011001111111100100000110000100000010011101010110001000010010000001000000011011
000000110101001101001111101010111110111110111110111110100101001010001001100111110000101010101111011010111011101101101100
100110011110100101100111011011000101001101011101010100101000001101100100010111111010110001011101110100111111111100001001
000011001000100110010111010100110001110110100100110111001110101010001000011000000001001011110010111111011001100001010010
011001001011101100010100000101011000101011001001111001011110010011011101001000011011010100010100000000011001011011001111
101110000101111111111010101000111100110101100100111111100111100111101110000110100110111100110100100101010001011001000001
000000011110011100110100010001000001111101110011110100000100011010001100111100111000100111001010100011001010100001100111
011010100100101101111101000110111000000011110101111101111101010101011001000101110010011001011100001111000101111101101110
110001010010011011000111001100001010100110000100101101100100010110001010010110010110000110001001111100111000001000000001
001001000011101111101000100111010101100111000101000111001101010011110101110011100110001011100101100001001111001001110000