011011110000000011111010110111100010111001011000010100001010000100101011100011110101010001001101101010000111110010101111
000111010001101010000110101001011111101110000010111111000101110111110000011100010110101100000000111001000011010001111011
100101111101100111100111100110111010010001100000011001110101010000111101101011010011100001011111010010100111000111110110
001110010011100111010011010000001111000011000100000001100010101100100101000111010011100111001001010100011110111110111000
111000011000011000101010101101111110110010001111111100110011011101101001000110010010011101010010111000111101101001011001
101110001000010001100110110001101010001001001001101010111110101011101100001000100101001001001100101001100111010110011000
101011100101111001000101000111001001110000101110010010000101111010010101110100101011100100000010101011110111010111000100
101111011111111010111101000011111011001011110000001011001011101001011010010100101101110101101111001001111101111100110010
111110000001110001001111110001111111011000000011011010101110000011011110101101000100001111000110111110111000111000101000
001101000100100100010101110101111001010110101011101000111100011111110011101111111110010001100000000000000000110010011101
001101110000010010000101000011010000110110100111011111010001000111110101101111111101110011010000010101101011111000111010
001110001111100011101001001011110111100101111011011101111001001101101111010111111100000111011000001000100001100011000101
001100111100000110011111010111110011011010010000010111000001011000101100111111000101110011011001100110111110111010001000
000011100010100011011010001100111010110001100011010111111000110011100000001001101100110010100010100100000011010101011111
010111010010110011110101111100000110001010100001101010110000111100011010100111001101000111100101001000010010111010110001
101110000110000101001000000100000101010010111101010010101100111100110001101010010111011100000011011110101011011001011011
001010000010110010000000000110110110001100100010000010001101011011001010000000000011010010011001011100001100011100000111
101110110110001100001000110100010101110100101011110011010110001100001000100101011001011010001100001101100111010110100110
001110111100101100111101100001001110101010001011100010011111011001110111000010110111110111111001001111011101101010111100
000011001011001001001011011111001111101001000010111100101100101011100001010100110111011101000010000000000110111111101011
011110010000101010000010111010011010001000010111001100101111000010110110100100111101001010001100011110101010111011111001
000001010100101010111000010000110001110011010011000000010010100100010001100010011000010110000011101110100110100011101011
101000010101011110010010000010111011011100011110010011011010100011000101010011111101011111101001001010011111101100111111
010111111101101111000010101111011010111111010010101100001100000101000001101010000100011100111101100001011111100111101111
110100100100010100101101010111000010100100111110100110001101001100000001111010111001100001110101001100010100000000101001
110111100101000001000110100110100111100001110100011000100001110001111110101110110011110101111101110001100001010000110100
011101001101110010100001001000101100101101110000111111000010111000000011111000101000001010110110100111001110001011011101
000110100001100010000001111111110001001100100110011011101111001110100001101001111101100110101011010010100011011001010000
100100110000011000001000111100001001101000010010000001001101001100001000000001000010110110100000100000001111111011000101
100111011001100001110110101100010011101001101010101011101010111001010101111101011001001010011100001001010010100111100001
110101110011011100100000000100010000011110101110101101010011011001011110110110111100011111111111011110111111100000000101
001011000110111000000000010000001111100110000000001010010010011010010101010011010000011111110010100001000001101111010001
110011001010111111000001100111000011101110000100011110101100101000011101010001100110010101111101110101110100010100101100
000001100001011100000001000110100011110110111000111101101010110011000011110100101000101001101100100011011100000000101010
100110001001101110010000001011000111001101110101010110001000000000001100010000010000010011111110010011001101111110100000
001010010101001101100101001110011111100010010010011111100111101001111010010000000110100111010101011101011010001011111011
011111100111010001100111110010111010110010101011101011010010011001001011010101011010111101100000001010110001100101011001
110111001101110011110110110110110001001011111000101111100010010100000010011011100111010100001100111101011011110000101100
101110011000011011000100100100000011011001010101000111101101011000101000001110110110011111110001000111011001011011100100
000001010011010111001000011000001001001100100100011100110100001110001011001001101100001010011010100011010001010110000000
011100101111010110100110001010010001100100010101010011110000101001100101000111010001000000111110110111000111000111011001
100101111101010011010001010010011100001011000101000001001100100111101101101101000001011111001110000101110110101010010100
110000010000011000010001111011000111011110001001110010111110000101110001111010010100100001111011110101010000110101110101
111011110100011011011010000101110010001010001000100001001010001101110011000100010011001111111001100100100111000111011101
000001101010001111100100000010010101101100101111011101111000111101001010011010110111010000000111110001110010100110101001
000111111010010011101110110000110000111110010101000001111110000101111111100100001001010011000001011011001010100001011111
111110001010100111001100101000011101100001001100010110100100000110011111010011001001000101100100110100111000010010101000
111011100011000101110001110011100110110101101100110101011100001110011111111000110010111010110011001110110010101111101010
111011110100011100110001100010101010010110011100110100100001011010110011000110101110110011111101110101101000000100001100
010010001110000010101001010100100101101100100001001010110010100011111111111010111101010111010101011101010011101001111000
100101001111011100011100100000110011010110000010111110101111011110100000100101100001001000110101001001001000101010010100
010100010100000011010010100010001100110011100100111000000001111000010001111111001111000000100101101110000000001011011000
001100011011101010110010011110001011100000110001110111101000110011010010110100010010001000001100000101110111101011110110
100101111110001100101000100000001010011100111110100100100101111010010001001010101000010010111110101000001010011011011101
011000011001111110110100010001100100111011100111101000110011100100011011001100001101111001010000110101101100110100101000
110000010011011001010001111001111111001111101110011111101101011111101001000111100110011111010110000110100101000110101001
010100000001001101001101100100000101110001001000001001010010111110110111111010011011011111010111010011110101000001011100
000101101100101110101011010110010010111010010100101000001100011110101111001001111000100010110001111111011110001101000011
100000101000110010000000100001100111100110001101111101110001001010001110010100110101111100001100010001001010101100111000
000111010111100001011101110111011001111110111010111010001001011000111010100011011101011000011100011101110000011101011111
010110011101010011000010101101111010100100011111010110010101110000100101000111010000101010110100110011011111100110101001
101010011111111011000111001111101001011010001110011011001100111111000010111100001100001110000111011110001110001000001001
000011011100101001001001001001111111100110100100010111011010111100100110100110011000000010011101001011101100111110001001
000011111010000110100011111011000000101111001001010101000011111111110110001101000111111001011011000010101010000000010011
011100110011011000110111011110001001101110000110111110111101110010111001011010011001000000100110101110111111110100100100
000111000011000101101010011111001110110000010101110000101110100010001010011001111111100110001010011100000110000100100000
101100011001010101100001001011110000101111000110101010010110010100001110100010011000101111101101111110100011000110010110
100010100011101111010111100100101110000100110011100011110110001001001001110011100010100000100010111010000010011000001000
101001000011111010011010100011001000011010000001010001001010001000101011001001010100011001011101011101011011110100011010
001110000011010110110100100101100001010110101111111011010111000111100101110011100010010001101111010101111000100011000001
110000011111011110100100101001101100110101100110011001110100111110001110110100010010100101011000000101000100111101100111
111111000101011000111000101100000010100110000001001101100010011101111001100100011011001000010100110010111101010100000001
001101000110000011010111001111001011101010001010000110010000000010110000111110010010010011110110010111110000011011110100
011000100111011001011010111010010011101111000000010011100111011000011111110001011000110000110001111011101000000000110111
010101001000011010010001011010110000011100001001000100100000111011000010001010000110111000001100010100010100010100110000
100010001100000100110010000000110000100011001111111100001000001010010010011101010000001001100011000010000110100011101110
100100101000001101110010011001111110111001010110100001011011011001011000000111011111010001101110010110101011010010100100
000010000001001011010010010111100011111110000011011101110000010011010101001000101000101000001000011000110011000101011100
000001101110001010111011010000111110111101011111001010010111010100001011001001100110011001111111010100011101110110111110
011100000000101011000101001110011000010000011110111010100001010101111011011110110111111011001001110010000001100111111111
010110100110011111100001011111101001101000101010001010011011001000001101101011110010001100111111001101000110001001100011
010111010100101011101110101111111000110111000101001000011110101110011011110100001110111001000010111110100110001110100111
001010010010001011011011011011011011011001100001011111111010010001001001000100111010010001100011100111111001100111000011
101001010010000011110100110101011000011110110111010001111100101111001110011000001100010001000000010100110111100011111001
100110100110001111110001010111111101000100011000110110000111111010011110011110010010010100010010101010100111011110101111
010111110011101101111000110010010010011000001011101011110110000001010101100010001100010000110000000001111001101110000011
101111000110110010101010011110010110111101111010101111001110010101010110111010000000110011111000001101110001111100110110
111100101110110111100101001001010110111101010111101110100100000110000101011001001111101000111011100010101110111110001011
100010010100110101000110001101101100001011001001001001011100000010110101001011000011111101110100000011100011010110111001
110001110100010000000010011000111100001011100000110110100101111101101011000100011111000010000010010010000010100000101011
010010110000111111000000001010000111101001000100101001100101011100000010010110000101011110010000111111000001011100010011
010011101000111101101001010101010000101011101111100110001010101101111011010000010111100000011101100011110011011111000100
100100111101100101011001001110101100000011101010011110111001010111111111111101011000010101001101101001000110010000100110
111111110011110010101100100010001000100111101001111010111100111110110101101010101001010100001000010001001010001110011010
101011010110010001010101001010100000011000110100000100011101010011111001011100001010100111110110001010010100101010011010
111010000011000010101101001110011000001110011001110010001001001010110100111011101011000001011100101010110010111011001001
100011101011011001010101100010101101100000000101011111100110001001100110111101101110001111001100010101011001001101011011
111110110000100000100111001001010111000011000110100011010111001010001001110110010100110001110100111101111001101000010010
100000100100110010001101110001110010100110001000110110010101100110000101001010111010101111000001101010001100011110010111
110010010010000100111101101110101111110001001110101101000101101111000011111001011110110001101110101111001101110110010011
111110010000011011010001111000010101110100111110000010110011001010000000100010000000110101111010001100111110011110011010
001010010010011011010100111011001111101100111111010110101001111110000100111100001000111100110010001101001101001100000010
001100111111000110110011111111110010001000111010000001110000110001000010100110101011010001000011011011111000000011100010
011111000110011100111100100010000011111010010011010110011110010100010001101110100100110111110110001110001110000010101101
001000011011010001111001111101010000010111000011110100100111010010100011111101010000010101110101111101011000111110010010
000111111111110110011001101001101001000100000010111011000001101110001110100001100110010110010011111000110101011100001110
000111100111010000101110110110010000110110110000111111001101110001000001110111001000100010101100001110111000011000100010
101001110101111101000000010110000110011111010110111010000001010010000110110000110110000110101001000000110110101111100000
011111111101001010110011101111011110010000110100000010101111010101110101010111000110010111001111111100110000001100001011
110100000001111011011010100001011010001010011011100101110110101011000001100100000011000010101111101010101101111100100010
011010001001101000011000011001001011000001010100011111101000111100010000101011110100101010001001100011011001001000101010
011101000111110001100010111100100100111011100000010111010001101111001000110001001010000111101111011011110110110000101000
111011110000011000110000100101000001011000000101111010111111100011100111111100000100001011011110111001111001111000101000
110100110010100001011001001011110110000101001000101101000010011101100001011000110000111100000110111010000101010101010110
110000100110111011001100001010011110110111110010001011100000100110000111011001110011011100111011100001111100000011001010
100000001110111110111110100000000100001011000101111110000100000100100011001000000111010000011110001100001001101011100010
101100010010100100011011000110101010111000111111011111111111100010101011000110001000011100000001001010011010110100111000
100111111111010000100010010100110000100001011001000001011000110011101011001111110100001010010100111100101100010001000011
110000011110110011110111001011010100111110101101010101100010111101011000000001001101011100011010011111000101001110011000
101111000101000000110111011001101001110101101010111111000110011011001011011110111011011000011110000100011011100011110000
111111111111111111111111111111111111111111111111111111111111111111111111111111111111111111111111111111111111111111111111