100011111101001110011000001111000010110000111100110101110101101100111010000111011010110001100111110110100011000110111000
010000101001001000011100111110110110000011010010001001100001000010000000011100110110000101100010001011101101000111000001
100110010011110110110110100100110101000110000001110111011110101011111110110100011001010011101100011010110111011110001100
010000101100110110100000010110000111000111010101011011110111001101011000000000101100011010010101111101100001010001111011
111101001010001100100010100000010110011100110110110111001110010110000010100001101000001110000010110100101100110110001000
010101111110110000110000000101100100000011100111111110010100000000011011100010100001111101001001110010111111000011010101
001111111100111011001011000100111001000010101000010111111001110001000010000111000011000000000011010111101001010010011011
011010000101010000101000100000011010001100111001000001100101000111100000010101010101100111100001111111111100110101000100
010000110111100011110101110001011011001111110000001011001001010011101110110101010110011001001110100011111101110100110101
111010100011001110110010101010010101110100011101100011011010001001110001011110011110001001110101101110011000000000001000
001101110011110010111011000000111011101110100100111101010100101111001010011111110110001110100001100100001010111010110101
010110101000110111100001101000100011111100010100110111100101101110100010001100011001101000111110011011010001010000101111
101010000010011001011100011000100000110000111001000101100001101101111111001111010000001101101100001101101110011001001110
101111001001101001100011100100000110011010000011100110000011011001100110001110101110110111011001111010111110011101110010
001001000000110001110001001110100000100001000111001001011000011011101101011010110011000010010101101111110011100110110101
000010101101001110000011111110110010010010101000010011010011010011111101110111010101100001000001101100001001101110011001
101010011101000011000011110010100001010100100100110110110111010000000111111011111100001111111111011011011110110000000000
110100010110000000010110100000100100001110110000010110011101100010001101111110001001111000110010001010001010000111000010
001010100010101011101010111110100001100101111011000111010001010011101110001100111000011001100001111101101011011111110110
001001101010101001100101111100011101100110011110101010001100100111001011010110111111001001101001010111110101101010101001
011111111000001001010101101111111010111110101100001101010011011000000100101011011001110001001100011100011111111000011111
110100111100000101000001101000111100010111000100110101000010100110010101101110101110010011100011111100011110011110001111
001101010011000100000001010000001011001001001101000110100011100000010001101110001101100000000111001111010011010100101111
011110011101110001000111010101100001101111010111101001101110010101001001101000100010011001110011010110011001011001000011
010100100100111001101001110010000101000010111000000111100100000001111001110001000000011101011010110011101001100001000101
010111101001100011100110111111110100001101010111110110010101000011010101010011100010100001000000010000101010100011101101
001010000110011010110110001000011010010100011100011001000010001111001010110101110001110000101001010001110100011100011110
001010110010010000011011011001000111000000000100100110000110100010011011111010111001010000001100111110010001011101011111
100101100000110010101101000010011010101101000011100001111011001001000100110001101001110110101000010000000111111101011001
110010110001110111011001110100000011010100001010000101000101111001100001100111100010101100110010111100101100111111111010
001000110101111001101111101001010111011100111100100111011000111011001101100101100010000000001101011100110101110111010111
101011100000111111001101110010100111101100110111000001101101000001011001000101101100111110010001111111110110001001111010
011011001001011101011010010111101011001000011011011111001000111010011001101010110010000101000111101101011100111000101001
100011011000111010000110011101111001001111111100100010011000111001000010111111000111111100101010101111000011110011011100
001011010001101001001110001110110111011100001100110100111010010010011101110000111101010000101100101001101110110110000101
001010111000010011110111011111111110111101110000100011101001001100000101011011001111101010111001110110110101100110100111
100011000000001011010101110000011000001110100111010110001111000000000001100001000111000101101100101111001010001010010110
010010100111110010011110010100100000001111101000110010000001000000010001001101110110101000101010111110000100111111111010
010010011111101001001001111001011111100100000001000011110010101100111111000110010100011111101011101101001001011011101010
000110111110010100100001000010110011101001101001000000000101101010110111100100100111110100010110111010100100100111011000
111001010101000001101110110000111010001100001111000101111011100011110111111001100101111100001011011010100010000000001011
100111010000010010111001111100000010001001001011101101000110101011111010101110101001111110101111000110001000101011011001
001100101001001110001101010011110111101111010101110011010000111001010101100100010100000111101101001101000010011101100001
011001000010010100111110010101100010110001100100110011000101110111011010110101111100101100001011110010100011110010011010
111100001001110110101000000000111100010101011001010100110001111000111110111101111010111100111100110011110011100000011001
000110011100101100101110111100101101100000010010000011111111100001100111011100111111110011110011001011010101110101001101
101111101010100010111100010010110110010001110010011011100011011110010101101101110001100101111011100001100101001011001101
100111011101111001001111000110101100101110110111100001010110101111000101000111010010110111011101110000011010111101110111
011010110000000001111010000001011100111001100000111010110010110011001101101011011101011110010001010010110001010111000000
011110000110100101000101000111001100100101100101100111100001010100100101111000110101010111111110011101011110000001001100
101100101011110001000000110011101101110001001001111110100010001011111110001110010110010111000000101101001001011001001110
011101010011001001001101011010101111100010100010001110111010100100000101001001010011101011100011110011011110010001101001
001011000110010001001101101000001001101110000010010100011100001000100010011100101001110100011001101011100100011011001010
111101110010000011111111010110000000011010101011101101101000101001100101000010000101010101101010101011111000101110101111
000101111100000001011100011101000100111011001111100000110000011010111011110011100011101100110110100001111000010111110001
000011111011110001110010101110001111110101111010100110110001000110000001001001100100111000000011110101101000111011101110
001001011001000011001011001010000010100100111001010101110011100100000111000111010010101110101100010001001010011011111100
000010010011110001110111111110011011110111011001110101110010010010100111000101010111101011110101110000010111000010111001
111101100100111011100001101011100100010000011011100001110100101111000001000010011110010001110011011001000110101100110000
110101101000101010000000010000000001111011101010111000001010011111010110101110101000000010110000011010001111010000001000
011000001010100101001000111010001100001001111010101011000000001000111011100100100010100000010000010100101011101001011011
100010110101100010100000100111111110111111010111110011011110011001011011111110110110011011001100101110101100001111011101
010000011110101001100110100100001100011001011000100100100001010010011011100000101110000101101101111111101100111100111110
111111111111011011011101011101110010110110010001101100100000011010000110001011110101100011011100101000101111000001110100
011001100100011010010010000101001011111001111000000001011001100100110010100110000001001001110111111110001110101111001011
110100011000010111001110110111100001111110110010000000101101101001011110010000100011101100011001110000110111100000110000
101010100011110010000101110110001000000101101010110011010110001011001110000010101001010010111100011011010010011011000001
001110000010100000100111110011101100111001101001000000000111110100011010001110111100111111001011011000000011100011101111
100001001001001110111110001101000110101111000110011100111011111111110010000000100000111111110101100001110111011110010010
111011110011000101000010110101010111100111100001101110010011110101001010101010110101001010101110011100011001001101011100
101010100110111111000111010011110101101100001100001111100011001001010010000101010010000111110101001111100110111011100100
001001010111000111001100100011000001000000100101111101101000101011111001000110111101100101111111010101011100101110101111
010111101101001000000000011001111110001100101000000100110010101011011010001101001110110101110111111100010101011001001010
100101001100010010100110100101001110101100000011101111010111101010011100011101001011011000001001000111001110110110100111
111100110000000001001101111011010001000011101011101000001111100001101000100001110110111101001100111001110000100011101010
101101000111001100010111100110101011110110111101101110101001000000101101010111101000010100010100101111110110111111000101
111110101101000011000111010011001011101110100111001001000001011001010010101111100001111101011101100100101000011100010110
001011110011001010111001111111011110000010000001000110101010100011010111101000101001000110110111010010000101001100101011
100100010001001011010101111100110111111101100010010111101010001000110111000011110000101011000001000000101111101010011110
000101111000100001111000110101010111010101111001000011011000100111001010111010000110000100110100101111001011010111001110
011000110100111000001100010111100001101110111100010010100000010100000010000000110011000100111010110000010010000101011101
000100001100100110001100110000110011000001110010001010000111100111011001101111111101000111101110000011000101111001011110
001100100111001010011101011110111100001111000001000111011101110111011000101101111001001110101101010110011101001110110110
110011110101011010000011100001111011110010001001011111111011010101110101011100010000001100010001111010010010010001010001
010001110100111001101110100001000011000100110010111101000010110100001011010111001001010010000100100011111111100101100101
111000000101001100000101011111001101011000010011010101101010100100011101010000110110001001010011000111101000101111111000
010010111100011010100111111100110101111110001111110110010111000011011100111100110001000110111101100010010100000110001011
101001010111110011100001000100010111110110100011001001000101110101111000011111000111101011010101010010001111111101101110
111010001010001100010101000110101001010000110001010110010111010001110101010010110100101001111100010101101100110100101101
100111111100110011000011111010000100010000101011111110011000001110111000001001011010001010001111101011111100110111010100
111100111000111111111110001101110101001111001010111101000100110000100111011001010000011110100100101101111110011001111010
100111001000010001011010100011101111111010111000010011100101110101010010100111111011110100100111010000101011111011110101
000010101000110001100010100010010010110111111000110011000000111011111000101101000101101110010010000110011101101010010010
100011011010110110000011110101110010100100011111011001111000111111000111001000001100110011111100011001011101101110001010
000011111110101110111000101011100001100001011000111100011011101100100010000111100111010100011110100111010100111010110010
010110111111010010001011000001111000001001010010011011110100101001000111001001010000100000001001011011111010111110101111
000011100011011111101111101011111100101100000110110000011000101111101001111000111111100010100001111000001011110100011111
010000000011101100001110000100010110100010101001111111010000010100110000110001011011001110000111110000111111001010110011
100100001010111000010001100010101001110110110011000101100101101001000111001000011010111101111011111111111110001010000111
101010010010001001000011101101010010001101001000110000111100000001010101111100000001100011111000101011100001000000110000
111111010111001111000010110010101000001110111100001100101010010011100100001101010010111000010000000010110010100000001011
000111010101101101110000000011010011001011000000001101100001000110010011111101010101011101010101100000011111010110001100
110111100110011010010001000001010011010100011011001001010110100111100111111111101010001001010111001111011100110010011011
011110010110001001000000101101001000011000111000001000001000001100000011000101100101010100110010001100111001101100110110
010111000101000101101000010111000111111101101000101110010010001111010010010000000010011001000111000010010100011011110001
010000010110101011011001010000101010111111111011100001111011000000110100111001101010011010001101001011010010101001100111
110010111110100100101100010111100110001111010001001001111101001000100011111001010101001011111100110000010110010010001010
011011000001100111110110010001010011110101010000100100011110111110000000111101111100110011000100000110110010100010111110
001001111100110010101000001111100010101110100010011111010100101000111011010101011111110011111101011001010111010101011010
010100010101100110010011000000011101011111011110100100110011000010101101010001011101100110100111101001001110111110000111
000110110111110011011101011110110000011000100010110101011101101100011001111010000110011110010000110001010110111111011100
111111111010000001011110001110111101010010000111001001010010111100011111000111010110011111110111101101110000010001101010
001011101111101000100001101010010000100110100101101100000010011100110111011010011000010000011001111010101110011100011001
001111101010100111010001111111011000001001111001110101111101110000110011001010101011010101000111100110010001010011001101
100100111111010010110011010101001000111101001100010001101111100000110111000010000011110011001110100101101001011111011110
101000111110001000000010111111010001001011000110111101110000101001001100111000000110010110101001111000100011010101011011
000011011011000110010010001000011011111011111110101001010100101101101110111110110010000101011001001110101111000010001111
110101011111010111010001001110010000001000010010100010111010100011100111101001000010011000010100111001111011101110101111
101111100101101111111000001111111001000001100001101111001011101110101001110011110000001111010110010100010111110110001110
011100101001100110000100110010110010101100110001010010101100000001000100011000110010000100001100101001001001000101000101
111111111111111111111111111111111111111111111111111111111111111111111111111111111111111111111111111111111111111111111111